unsigned char modelo_vazao_tflite[] = {
  0x1c, 0x00, 0x00, 0x00, 0x54, 0x46, 0x4c, 0x33, 0x14, 0x00, 0x20, 0x00,
  0x1c, 0x00, 0x18, 0x00, 0x14, 0x00, 0x10, 0x00, 0x0c, 0x00, 0x00, 0x00,
  0x08, 0x00, 0x04, 0x00, 0x14, 0x00, 0x00, 0x00, 0x1c, 0x00, 0x00, 0x00,
  0x98, 0x00, 0x00, 0x00, 0xf0, 0x00, 0x00, 0x00, 0xd4, 0x05, 0x00, 0x00,
  0xe4, 0x05, 0x00, 0x00, 0xcc, 0x0a, 0x00, 0x00, 0x03, 0x00, 0x00, 0x00,
  0x01, 0x00, 0x00, 0x00, 0x10, 0x00, 0x00, 0x00, 0x00, 0x00, 0x0a, 0x00,
  0x10, 0x00, 0x0c, 0x00, 0x08, 0x00, 0x04, 0x00, 0x0a, 0x00, 0x00, 0x00,
  0x0c, 0x00, 0x00, 0x00, 0x1c, 0x00, 0x00, 0x00, 0x3c, 0x00, 0x00, 0x00,
  0x0f, 0x00, 0x00, 0x00, 0x73, 0x65, 0x72, 0x76, 0x69, 0x6e, 0x67, 0x5f,
  0x64, 0x65, 0x66, 0x61, 0x75, 0x6c, 0x74, 0x00, 0x01, 0x00, 0x00, 0x00,
  0x04, 0x00, 0x00, 0x00, 0x90, 0xff, 0xff, 0xff, 0x09, 0x00, 0x00, 0x00,
  0x04, 0x00, 0x00, 0x00, 0x08, 0x00, 0x00, 0x00, 0x6f, 0x75, 0x74, 0x70,
  0x75, 0x74, 0x5f, 0x30, 0x00, 0x00, 0x00, 0x00, 0x01, 0x00, 0x00, 0x00,
  0x04, 0x00, 0x00, 0x00, 0xda, 0xfa, 0xff, 0xff, 0x04, 0x00, 0x00, 0x00,
  0x0c, 0x00, 0x00, 0x00, 0x6b, 0x65, 0x72, 0x61, 0x73, 0x5f, 0x74, 0x65,
  0x6e, 0x73, 0x6f, 0x72, 0x00, 0x00, 0x00, 0x00, 0x02, 0x00, 0x00, 0x00,
  0x34, 0x00, 0x00, 0x00, 0x04, 0x00, 0x00, 0x00, 0xdc, 0xff, 0xff, 0xff,
  0x0c, 0x00, 0x00, 0x00, 0x04, 0x00, 0x00, 0x00, 0x13, 0x00, 0x00, 0x00,
  0x43, 0x4f, 0x4e, 0x56, 0x45, 0x52, 0x53, 0x49, 0x4f, 0x4e, 0x5f, 0x4d,
  0x45, 0x54, 0x41, 0x44, 0x41, 0x54, 0x41, 0x00, 0x08, 0x00, 0x0c, 0x00,
  0x08, 0x00, 0x04, 0x00, 0x08, 0x00, 0x00, 0x00, 0x0b, 0x00, 0x00, 0x00,
  0x04, 0x00, 0x00, 0x00, 0x13, 0x00, 0x00, 0x00, 0x6d, 0x69, 0x6e, 0x5f,
  0x72, 0x75, 0x6e, 0x74, 0x69, 0x6d, 0x65, 0x5f, 0x76, 0x65, 0x72, 0x73,
  0x69, 0x6f, 0x6e, 0x00, 0x0d, 0x00, 0x00, 0x00, 0xe0, 0x04, 0x00, 0x00,
  0xd8, 0x04, 0x00, 0x00, 0xa8, 0x04, 0x00, 0x00, 0x90, 0x02, 0x00, 0x00,
  0x7c, 0x02, 0x00, 0x00, 0x4c, 0x02, 0x00, 0x00, 0xfc, 0x01, 0x00, 0x00,
  0xac, 0x00, 0x00, 0x00, 0xa4, 0x00, 0x00, 0x00, 0x9c, 0x00, 0x00, 0x00,
  0x94, 0x00, 0x00, 0x00, 0x74, 0x00, 0x00, 0x00, 0x04, 0x00, 0x00, 0x00,
  0x8a, 0xfb, 0xff, 0xff, 0x04, 0x00, 0x00, 0x00, 0x60, 0x00, 0x00, 0x00,
  0x0c, 0x00, 0x00, 0x00, 0x08, 0x00, 0x0e, 0x00, 0x08, 0x00, 0x04, 0x00,
  0x08, 0x00, 0x00, 0x00, 0x10, 0x00, 0x00, 0x00, 0x28, 0x00, 0x00, 0x00,
  0x00, 0x00, 0x06, 0x00, 0x08, 0x00, 0x04, 0x00, 0x06, 0x00, 0x00, 0x00,
  0x04, 0x00, 0x00, 0x00, 0x01, 0x00, 0x00, 0x00, 0xea, 0x03, 0x00, 0x00,
  0x0c, 0x00, 0x18, 0x00, 0x14, 0x00, 0x10, 0x00, 0x0c, 0x00, 0x04, 0x00,
  0x0c, 0x00, 0x00, 0x00, 0x4c, 0x1f, 0xee, 0x52, 0x10, 0x95, 0xbf, 0xd6,
  0x02, 0x00, 0x00, 0x00, 0x02, 0x00, 0x00, 0x00, 0x04, 0x00, 0x00, 0x00,
  0x06, 0x00, 0x00, 0x00, 0x32, 0x2e, 0x31, 0x39, 0x2e, 0x30, 0x00, 0x00,
  0xf6, 0xfb, 0xff, 0xff, 0x04, 0x00, 0x00, 0x00, 0x10, 0x00, 0x00, 0x00,
  0x31, 0x2e, 0x35, 0x2e, 0x30, 0x00, 0x00, 0x00, 0x00, 0x00, 0x00, 0x00,
  0x00, 0x00, 0x00, 0x00, 0x10, 0xf7, 0xff, 0xff, 0x14, 0xf7, 0xff, 0xff,
  0x18, 0xf7, 0xff, 0xff, 0x1e, 0xfc, 0xff, 0xff, 0x04, 0x00, 0x00, 0x00,
  0x40, 0x01, 0x00, 0x00, 0x89, 0x42, 0x37, 0xbd, 0x5b, 0xc8, 0xc8, 0x3b,
  0x25, 0x49, 0x8a, 0xbe, 0x8e, 0x06, 0xf1, 0xbc, 0xee, 0x73, 0x0b, 0xbf,
  0xea, 0xec, 0xcc, 0x3d, 0x98, 0xd3, 0x94, 0xbd, 0x37, 0x87, 0xb6, 0xbc,
  0x59, 0x9c, 0xfa, 0x3e, 0xfc, 0xae, 0x72, 0xbe, 0x3c, 0xcb, 0xf8, 0x3d,
  0xa5, 0xbf, 0x42, 0x3d, 0x3a, 0xbe, 0xc3, 0x3e, 0x0f, 0x7d, 0x7d, 0xbf,
  0xdc, 0x8e, 0x31, 0x3f, 0xbe, 0xbd, 0x5d, 0xbe, 0x3a, 0x15, 0xa7, 0xbe,
  0x13, 0xa3, 0x66, 0x3d, 0x17, 0x13, 0x98, 0x3e, 0x58, 0xff, 0xa1, 0xbe,
  0xc2, 0x14, 0xf3, 0xbc, 0x70, 0x83, 0xd5, 0x3c, 0x76, 0xf5, 0xde, 0x3d,
  0x34, 0x34, 0x37, 0xba, 0x1a, 0x28, 0x13, 0x3f, 0xcb, 0x36, 0xe4, 0xbd,
  0x29, 0x06, 0x27, 0x3e, 0xad, 0x86, 0xc3, 0xbe, 0x8f, 0x6c, 0x8c, 0xbe,
  0xc5, 0x07, 0xab, 0xbe, 0x29, 0x05, 0xf0, 0xbe, 0x95, 0xfc, 0x9c, 0xbe,
  0x8d, 0x9c, 0x62, 0xbd, 0x8e, 0x4a, 0xf4, 0x3b, 0x01, 0xcc, 0xd2, 0xbe,
  0xd7, 0x28, 0xcc, 0x3e, 0x1a, 0x62, 0x2a, 0xbe, 0x95, 0x83, 0x7b, 0xbe,
  0x3e, 0x0c, 0x15, 0xbe, 0x3f, 0xca, 0x87, 0xbf, 0x5a, 0x05, 0xaf, 0x3d,
  0xdc, 0x4c, 0x72, 0xbd, 0x2f, 0x1a, 0x16, 0x3c, 0x0d, 0x90, 0x08, 0x3f,
  0x1f, 0x79, 0xdb, 0xbe, 0x26, 0x16, 0x9d, 0xbc, 0x0c, 0x80, 0x04, 0xbd,
  0xdf, 0xb8, 0x18, 0x3f, 0xde, 0xf1, 0xe2, 0xbe, 0x8d, 0xe1, 0xa7, 0xbe,
  0xfa, 0x5f, 0x84, 0xbe, 0x12, 0xa1, 0x0a, 0x3d, 0xfb, 0xcd, 0x1e, 0xbe,
  0x57, 0xbf, 0x22, 0x3f, 0x09, 0xdd, 0x4f, 0xbf, 0x6a, 0xcd, 0x84, 0x3e,
  0x6c, 0xa2, 0x8d, 0x3e, 0xa8, 0x56, 0xca, 0x3e, 0xe0, 0x04, 0x05, 0x3f,
  0x92, 0x20, 0x0a, 0x3f, 0xf6, 0xaf, 0xae, 0xbe, 0x66, 0xf5, 0x8b, 0x3c,
  0xcd, 0x43, 0x39, 0x3e, 0xf7, 0x7b, 0xc6, 0xbe, 0xc1, 0x2b, 0x95, 0x3f,
  0x17, 0x40, 0x5d, 0xbf, 0x06, 0xdc, 0x96, 0x3d, 0xf0, 0x42, 0xcf, 0x3d,
  0xdf, 0xe7, 0xc4, 0x3e, 0xfa, 0x56, 0xd4, 0x3e, 0x9f, 0xa7, 0xcd, 0x3e,
  0x5c, 0x5d, 0x7e, 0xbd, 0xfe, 0xae, 0x95, 0xbe, 0xcf, 0x60, 0x06, 0x3f,
  0xa2, 0xb2, 0x1b, 0x3f, 0x54, 0xec, 0xa3, 0xbe, 0xde, 0x52, 0x3e, 0x3d,
  0x49, 0xd4, 0x08, 0xbe, 0xd5, 0x1e, 0xc6, 0x3e, 0xff, 0xc1, 0x08, 0xbf,
  0x6a, 0xfd, 0xff, 0xff, 0x04, 0x00, 0x00, 0x00, 0x40, 0x00, 0x00, 0x00,
  0x75, 0x05, 0x80, 0xbe, 0x72, 0xfe, 0xa0, 0x3c, 0xbb, 0x33, 0x14, 0xbd,
  0x88, 0x5a, 0x89, 0xbc, 0xe1, 0x51, 0xbd, 0x3d, 0xb1, 0xbc, 0x8d, 0xbd,
  0xf6, 0xbc, 0x2e, 0x3d, 0x9e, 0x6d, 0x4f, 0x3d, 0x7c, 0x64, 0x5e, 0xbe,
  0x15, 0x91, 0x33, 0xbe, 0x04, 0x78, 0x08, 0x3d, 0x34, 0x3b, 0xce, 0x3d,
  0x0c, 0xe9, 0xca, 0x3d, 0x53, 0xc8, 0x55, 0x3d, 0xab, 0x9c, 0x2a, 0x3d,
  0xc8, 0x25, 0x91, 0x3e, 0xb6, 0xfd, 0xff, 0xff, 0x04, 0x00, 0x00, 0x00,
  0x20, 0x00, 0x00, 0x00, 0x74, 0xda, 0x44, 0x3d, 0x41, 0xab, 0x00, 0xbe,
  0x9c, 0xb9, 0xbc, 0x3b, 0xad, 0x47, 0x1d, 0x3d, 0xed, 0xa6, 0x1e, 0x3d,
  0x95, 0xf2, 0x1c, 0x3e, 0xd8, 0x82, 0x14, 0x3d, 0x4f, 0xfa, 0xcc, 0xbe,
  0xe2, 0xfd, 0xff, 0xff, 0x04, 0x00, 0x00, 0x00, 0x04, 0x00, 0x00, 0x00,
  0x6e, 0xc6, 0x0d, 0x3e, 0xf2, 0xfd, 0xff, 0xff, 0x04, 0x00, 0x00, 0x00,
  0x00, 0x02, 0x00, 0x00, 0x74, 0x99, 0x5b, 0xbe, 0x80, 0x43, 0x89, 0x3e,
  0x5b, 0xbf, 0xd5, 0x3d, 0xa2, 0xd1, 0x2f, 0xbe, 0x13, 0xd8, 0x3f, 0x3e,
  0x12, 0x22, 0xc0, 0xbd, 0x9c, 0x68, 0xd6, 0xbe, 0x9f, 0x33, 0x1c, 0x3f,
  0x08, 0xde, 0xf0, 0xbe, 0x3a, 0xc7, 0x48, 0xbf, 0x0f, 0x66, 0x46, 0x3e,
  0x3f, 0x29, 0x87, 0x3e, 0x5a, 0x9f, 0xa6, 0x3d, 0x04, 0xe5, 0xdb, 0x3d,
  0x69, 0xa1, 0x0f, 0xbf, 0xa9, 0xec, 0x8a, 0x3e, 0x63, 0xd3, 0x06, 0x3e,
  0x94, 0xa9, 0x86, 0x3e, 0xba, 0x34, 0x36, 0xbe, 0xf4, 0x91, 0x11, 0x3e,
  0x63, 0xad, 0x84, 0x3e, 0x92, 0x46, 0x96, 0x3e, 0x14, 0x6a, 0x4c, 0x3e,
  0x3b, 0x44, 0x97, 0xbe, 0xd7, 0x26, 0x70, 0xbf, 0x98, 0xf4, 0x8b, 0xbf,
  0xc2, 0x1b, 0x65, 0xbe, 0x7e, 0xfe, 0x35, 0x3e, 0x41, 0x98, 0x16, 0xbe,
  0x22, 0xe4, 0x1c, 0x3e, 0x9c, 0x23, 0x46, 0x3e, 0x92, 0x63, 0x84, 0x3e,
  0x6f, 0xbe, 0x9f, 0x3d, 0xa1, 0x93, 0x9a, 0xbe, 0xb1, 0xe3, 0x17, 0xbe,
  0x37, 0xde, 0xd6, 0xbe, 0xc1, 0x7c, 0xe9, 0x3e, 0xc1, 0x37, 0xb4, 0x3e,
  0x29, 0x5c, 0x0f, 0x3d, 0x82, 0xc7, 0xbb, 0x3e, 0xc3, 0xfd, 0x96, 0x3e,
  0x89, 0x73, 0xb0, 0x3e, 0x1e, 0x3f, 0xa7, 0xbc, 0x62, 0xc9, 0x94, 0xbc,
  0x4e, 0x2e, 0x7c, 0x3e, 0x50, 0x84, 0xa0, 0x3e, 0x3c, 0x69, 0x0c, 0x3d,
  0xf8, 0x7c, 0x43, 0xbd, 0x15, 0x8d, 0xd8, 0x3e, 0x0c, 0x2e, 0x29, 0xbf,
  0x1a, 0x7f, 0x85, 0xbf, 0xa7, 0x5a, 0xbd, 0xbe, 0x2e, 0xc2, 0x1a, 0xbf,
  0xc7, 0x95, 0x8b, 0xbd, 0xb8, 0x05, 0x22, 0x3f, 0x59, 0xe6, 0x18, 0xbf,
  0xf7, 0xec, 0x8a, 0xbe, 0x9e, 0xfb, 0x8f, 0x3e, 0x52, 0x8b, 0xc7, 0x3e,
  0x2a, 0x8a, 0x8b, 0x3e, 0xdc, 0xd9, 0x68, 0x3d, 0xf0, 0x17, 0xf1, 0x3e,
  0x4b, 0xb6, 0xc4, 0xbe, 0x47, 0x6d, 0xac, 0xbd, 0x8d, 0xff, 0x75, 0xbe,
  0x4c, 0xd7, 0xe1, 0x3e, 0x67, 0x43, 0xae, 0xbf, 0x71, 0x73, 0x00, 0xbe,
  0xef, 0xaf, 0xcf, 0x3e, 0x80, 0x61, 0xd9, 0x3e, 0x9b, 0xf6, 0x2e, 0x3c,
  0xdb, 0x56, 0xf4, 0x3d, 0xcb, 0x4b, 0x74, 0xbe, 0xb9, 0x95, 0x3e, 0x3f,
  0x5a, 0x7e, 0x03, 0xbf, 0x9b, 0x6c, 0x74, 0x3e, 0x2a, 0x97, 0xc8, 0xbe,
  0x63, 0x0c, 0x79, 0x3e, 0x3c, 0x17, 0x8a, 0x3e, 0x64, 0xad, 0x5a, 0x3e,
  0x18, 0xc2, 0x98, 0xbe, 0x6a, 0xd7, 0xcc, 0x3d, 0x57, 0x8c, 0x71, 0xbd,
  0x77, 0x75, 0x1c, 0x3b, 0x0b, 0xa2, 0x03, 0xbf, 0xeb, 0x95, 0xd5, 0x3e,
  0xe0, 0xec, 0x59, 0x3e, 0x1c, 0x97, 0x63, 0x3e, 0xd2, 0x3a, 0xa2, 0x3e,
  0x28, 0xfa, 0xb2, 0x3e, 0xbb, 0x49, 0x85, 0xbe, 0xa8, 0x15, 0xc2, 0x3e,
  0x7a, 0x7d, 0x95, 0xbf, 0xbf, 0x8d, 0x17, 0xbf, 0x68, 0x98, 0xee, 0x3c,
  0x30, 0xb9, 0x2b, 0x3e, 0xfd, 0x95, 0x82, 0xbf, 0xc8, 0xf5, 0xea, 0xbe,
  0x77, 0x84, 0xd7, 0xbe, 0x6d, 0xe1, 0x27, 0xbe, 0x6e, 0x6b, 0x09, 0x3f,
  0x82, 0x47, 0x06, 0x3f, 0x92, 0xcd, 0x8b, 0xbe, 0xf2, 0xc3, 0x3f, 0xbc,
  0xff, 0xc1, 0x8f, 0x3f, 0x0a, 0xf3, 0x62, 0x3f, 0x7c, 0x80, 0x5b, 0xbe,
  0x02, 0xeb, 0xf8, 0x3e, 0xc9, 0x71, 0x1d, 0xbe, 0xd3, 0xd7, 0x89, 0x3e,
  0x14, 0x54, 0xf1, 0x3e, 0xea, 0x9e, 0xae, 0xbd, 0xf2, 0x15, 0xb7, 0xbc,
  0xad, 0xa1, 0x0f, 0x3f, 0x4a, 0x88, 0xe4, 0xbe, 0xab, 0x0b, 0x27, 0x3e,
  0xc7, 0x50, 0x04, 0x3d, 0x6f, 0xf6, 0x3a, 0xbd, 0x27, 0xcf, 0x62, 0xbe,
  0xac, 0x3c, 0x1c, 0xbe, 0x75, 0x02, 0x43, 0xbf, 0x5e, 0xec, 0x8d, 0x3e,
  0x6a, 0x6b, 0x2f, 0x3e, 0x97, 0xb1, 0x88, 0x3d, 0x42, 0x77, 0x04, 0x3f,
  0x5e, 0xeb, 0x71, 0xbe, 0x43, 0xdc, 0xf9, 0xbd, 0xcd, 0x3b, 0x2d, 0x3f,
  0x00, 0x00, 0x06, 0x00, 0x08, 0x00, 0x04, 0x00, 0x06, 0x00, 0x00, 0x00,
  0x04, 0x00, 0x00, 0x00, 0x20, 0x00, 0x00, 0x00, 0x56, 0x46, 0xb4, 0xbe,
  0x37, 0xea, 0xd9, 0xbe, 0xf5, 0xec, 0xa9, 0x3e, 0xbb, 0x54, 0xe2, 0xbe,
  0x2b, 0xd9, 0x27, 0xbf, 0xc3, 0xc5, 0x77, 0xbf, 0x16, 0x49, 0x73, 0x3f,
  0x74, 0xba, 0xfb, 0xbe, 0x30, 0xfb, 0xff, 0xff, 0x34, 0xfb, 0xff, 0xff,
  0x0f, 0x00, 0x00, 0x00, 0x4d, 0x4c, 0x49, 0x52, 0x20, 0x43, 0x6f, 0x6e,
  0x76, 0x65, 0x72, 0x74, 0x65, 0x64, 0x2e, 0x00, 0x01, 0x00, 0x00, 0x00,
  0x14, 0x00, 0x00, 0x00, 0x00, 0x00, 0x0e, 0x00, 0x18, 0x00, 0x14, 0x00,
  0x10, 0x00, 0x0c, 0x00, 0x08, 0x00, 0x04, 0x00, 0x0e, 0x00, 0x00, 0x00,
  0x14, 0x00, 0x00, 0x00, 0x1c, 0x00, 0x00, 0x00, 0xd8, 0x00, 0x00, 0x00,
  0xdc, 0x00, 0x00, 0x00, 0xe0, 0x00, 0x00, 0x00, 0x04, 0x00, 0x00, 0x00,
  0x6d, 0x61, 0x69, 0x6e, 0x00, 0x00, 0x00, 0x00, 0x03, 0x00, 0x00, 0x00,
  0x80, 0x00, 0x00, 0x00, 0x38, 0x00, 0x00, 0x00, 0x04, 0x00, 0x00, 0x00,
  0x9a, 0xff, 0xff, 0xff, 0x10, 0x00, 0x00, 0x00, 0x00, 0x00, 0x00, 0x08,
  0x0c, 0x00, 0x00, 0x00, 0x10, 0x00, 0x00, 0x00, 0xac, 0xfb, 0xff, 0xff,
  0x01, 0x00, 0x00, 0x00, 0x09, 0x00, 0x00, 0x00, 0x03, 0x00, 0x00, 0x00,
  0x08, 0x00, 0x00, 0x00, 0x01, 0x00, 0x00, 0x00, 0x03, 0x00, 0x00, 0x00,
  0xca, 0xff, 0xff, 0xff, 0x10, 0x00, 0x00, 0x00, 0x00, 0x00, 0x00, 0x08,
  0x10, 0x00, 0x00, 0x00, 0x14, 0x00, 0x00, 0x00, 0xba, 0xff, 0xff, 0xff,
  0x00, 0x00, 0x00, 0x01, 0x01, 0x00, 0x00, 0x00, 0x08, 0x00, 0x00, 0x00,
  0x03, 0x00, 0x00, 0x00, 0x07, 0x00, 0x00, 0x00, 0x02, 0x00, 0x00, 0x00,
  0x04, 0x00, 0x00, 0x00, 0x00, 0x00, 0x0e, 0x00, 0x16, 0x00, 0x00, 0x00,
  0x10, 0x00, 0x0c, 0x00, 0x0b, 0x00, 0x04, 0x00, 0x0e, 0x00, 0x00, 0x00,
  0x18, 0x00, 0x00, 0x00, 0x00, 0x00, 0x00, 0x08, 0x18, 0x00, 0x00, 0x00,
  0x1c, 0x00, 0x00, 0x00, 0x00, 0x00, 0x06, 0x00, 0x08, 0x00, 0x07, 0x00,
  0x06, 0x00, 0x00, 0x00, 0x00, 0x00, 0x00, 0x01, 0x01, 0x00, 0x00, 0x00,
  0x07, 0x00, 0x00, 0x00, 0x03, 0x00, 0x00, 0x00, 0x00, 0x00, 0x00, 0x00,
  0x06, 0x00, 0x00, 0x00, 0x05, 0x00, 0x00, 0x00, 0x01, 0x00, 0x00, 0x00,
  0x09, 0x00, 0x00, 0x00, 0x01, 0x00, 0x00, 0x00, 0x00, 0x00, 0x00, 0x00,
  0x0a, 0x00, 0x00, 0x00, 0x7c, 0x03, 0x00, 0x00, 0x24, 0x03, 0x00, 0x00,
  0xcc, 0x02, 0x00, 0x00, 0x90, 0x02, 0x00, 0x00, 0x34, 0x02, 0x00, 0x00,
  0xdc, 0x01, 0x00, 0x00, 0x90, 0x01, 0x00, 0x00, 0xfc, 0x00, 0x00, 0x00,
  0x60, 0x00, 0x00, 0x00, 0x04, 0x00, 0x00, 0x00, 0xc2, 0xfc, 0xff, 0xff,
  0x00, 0x00, 0x00, 0x01, 0x14, 0x00, 0x00, 0x00, 0x1c, 0x00, 0x00, 0x00,
  0x1c, 0x00, 0x00, 0x00, 0x0a, 0x00, 0x00, 0x00, 0x34, 0x00, 0x00, 0x00,
  0x02, 0x00, 0x00, 0x00, 0xff, 0xff, 0xff, 0xff, 0x01, 0x00, 0x00, 0x00,
  0xac, 0xfc, 0xff, 0xff, 0x1b, 0x00, 0x00, 0x00, 0x53, 0x74, 0x61, 0x74,
  0x65, 0x66, 0x75, 0x6c, 0x50, 0x61, 0x72, 0x74, 0x69, 0x74, 0x69, 0x6f,
  0x6e, 0x65, 0x64, 0x43, 0x61, 0x6c, 0x6c, 0x5f, 0x31, 0x3a, 0x30, 0x00,
  0x02, 0x00, 0x00, 0x00, 0x01, 0x00, 0x00, 0x00, 0x01, 0x00, 0x00, 0x00,
  0x1a, 0xfd, 0xff, 0xff, 0x00, 0x00, 0x00, 0x01, 0x14, 0x00, 0x00, 0x00,
  0x1c, 0x00, 0x00, 0x00, 0x1c, 0x00, 0x00, 0x00, 0x09, 0x00, 0x00, 0x00,
  0x74, 0x00, 0x00, 0x00, 0x02, 0x00, 0x00, 0x00, 0xff, 0xff, 0xff, 0xff,
  0x08, 0x00, 0x00, 0x00, 0x04, 0xfd, 0xff, 0xff, 0x58, 0x00, 0x00, 0x00,
  0x73, 0x65, 0x71, 0x75, 0x65, 0x6e, 0x74, 0x69, 0x61, 0x6c, 0x5f, 0x31,
  0x2f, 0x64, 0x65, 0x6e, 0x73, 0x65, 0x5f, 0x31, 0x5f, 0x32, 0x2f, 0x4d,
  0x61, 0x74, 0x4d, 0x75, 0x6c, 0x3b, 0x73, 0x65, 0x71, 0x75, 0x65, 0x6e,
  0x74, 0x69, 0x61, 0x6c, 0x5f, 0x31, 0x2f, 0x64, 0x65, 0x6e, 0x73, 0x65,
  0x5f, 0x31, 0x5f, 0x32, 0x2f, 0x52, 0x65, 0x6c, 0x75, 0x3b, 0x73, 0x65,
  0x71, 0x75, 0x65, 0x6e, 0x74, 0x69, 0x61, 0x6c, 0x5f, 0x31, 0x2f, 0x64,
  0x65, 0x6e, 0x73, 0x65, 0x5f, 0x31, 0x5f, 0x32, 0x2f, 0x42, 0x69, 0x61,
  0x73, 0x41, 0x64, 0x64, 0x00, 0x00, 0x00, 0x00, 0x02, 0x00, 0x00, 0x00,
  0x01, 0x00, 0x00, 0x00, 0x08, 0x00, 0x00, 0x00, 0xb2, 0xfd, 0xff, 0xff,
  0x00, 0x00, 0x00, 0x01, 0x14, 0x00, 0x00, 0x00, 0x1c, 0x00, 0x00, 0x00,
  0x1c, 0x00, 0x00, 0x00, 0x08, 0x00, 0x00, 0x00, 0x6c, 0x00, 0x00, 0x00,
  0x02, 0x00, 0x00, 0x00, 0xff, 0xff, 0xff, 0xff, 0x10, 0x00, 0x00, 0x00,
  0x9c, 0xfd, 0xff, 0xff, 0x52, 0x00, 0x00, 0x00, 0x73, 0x65, 0x71, 0x75,
  0x65, 0x6e, 0x74, 0x69, 0x61, 0x6c, 0x5f, 0x31, 0x2f, 0x64, 0x65, 0x6e,
  0x73, 0x65, 0x5f, 0x31, 0x2f, 0x4d, 0x61, 0x74, 0x4d, 0x75, 0x6c, 0x3b,
  0x73, 0x65, 0x71, 0x75, 0x65, 0x6e, 0x74, 0x69, 0x61, 0x6c, 0x5f, 0x31,
  0x2f, 0x64, 0x65, 0x6e, 0x73, 0x65, 0x5f, 0x31, 0x2f, 0x52, 0x65, 0x6c,
  0x75, 0x3b, 0x73, 0x65, 0x71, 0x75, 0x65, 0x6e, 0x74, 0x69, 0x61, 0x6c,
  0x5f, 0x31, 0x2f, 0x64, 0x65, 0x6e, 0x73, 0x65, 0x5f, 0x31, 0x2f, 0x42,
  0x69, 0x61, 0x73, 0x41, 0x64, 0x64, 0x00, 0x00, 0x02, 0x00, 0x00, 0x00,
  0x01, 0x00, 0x00, 0x00, 0x10, 0x00, 0x00, 0x00, 0x96, 0xfe, 0xff, 0xff,
  0x00, 0x00, 0x00, 0x01, 0x10, 0x00, 0x00, 0x00, 0x10, 0x00, 0x00, 0x00,
  0x07, 0x00, 0x00, 0x00, 0x28, 0x00, 0x00, 0x00, 0x1c, 0xfe, 0xff, 0xff,
  0x1b, 0x00, 0x00, 0x00, 0x73, 0x65, 0x71, 0x75, 0x65, 0x6e, 0x74, 0x69,
  0x61, 0x6c, 0x5f, 0x31, 0x2f, 0x64, 0x65, 0x6e, 0x73, 0x65, 0x5f, 0x31,
  0x2f, 0x4d, 0x61, 0x74, 0x4d, 0x75, 0x6c, 0x00, 0x02, 0x00, 0x00, 0x00,
  0x10, 0x00, 0x00, 0x00, 0x05, 0x00, 0x00, 0x00, 0xde, 0xfe, 0xff, 0xff,
  0x00, 0x00, 0x00, 0x01, 0x10, 0x00, 0x00, 0x00, 0x10, 0x00, 0x00, 0x00,
  0x06, 0x00, 0x00, 0x00, 0x38, 0x00, 0x00, 0x00, 0x64, 0xfe, 0xff, 0xff,
  0x2b, 0x00, 0x00, 0x00, 0x73, 0x65, 0x71, 0x75, 0x65, 0x6e, 0x74, 0x69,
  0x61, 0x6c, 0x5f, 0x31, 0x2f, 0x64, 0x65, 0x6e, 0x73, 0x65, 0x5f, 0x31,
  0x2f, 0x42, 0x69, 0x61, 0x73, 0x41, 0x64, 0x64, 0x2f, 0x52, 0x65, 0x61,
  0x64, 0x56, 0x61, 0x72, 0x69, 0x61, 0x62, 0x6c, 0x65, 0x4f, 0x70, 0x00,
  0x01, 0x00, 0x00, 0x00, 0x10, 0x00, 0x00, 0x00, 0x32, 0xff, 0xff, 0xff,
  0x00, 0x00, 0x00, 0x01, 0x10, 0x00, 0x00, 0x00, 0x10, 0x00, 0x00, 0x00,
  0x05, 0x00, 0x00, 0x00, 0x3c, 0x00, 0x00, 0x00, 0xb8, 0xfe, 0xff, 0xff,
  0x2d, 0x00, 0x00, 0x00, 0x73, 0x65, 0x71, 0x75, 0x65, 0x6e, 0x74, 0x69,
  0x61, 0x6c, 0x5f, 0x31, 0x2f, 0x64, 0x65, 0x6e, 0x73, 0x65, 0x5f, 0x31,
  0x5f, 0x32, 0x2f, 0x42, 0x69, 0x61, 0x73, 0x41, 0x64, 0x64, 0x2f, 0x52,
  0x65, 0x61, 0x64, 0x56, 0x61, 0x72, 0x69, 0x61, 0x62, 0x6c, 0x65, 0x4f,
  0x70, 0x00, 0x00, 0x00, 0x01, 0x00, 0x00, 0x00, 0x08, 0x00, 0x00, 0x00,
  0x8a, 0xff, 0xff, 0xff, 0x00, 0x00, 0x00, 0x01, 0x10, 0x00, 0x00, 0x00,
  0x10, 0x00, 0x00, 0x00, 0x04, 0x00, 0x00, 0x00, 0x1c, 0x00, 0x00, 0x00,
  0x10, 0xff, 0xff, 0xff, 0x0f, 0x00, 0x00, 0x00, 0x61, 0x72, 0x69, 0x74,
  0x68, 0x2e, 0x63, 0x6f, 0x6e, 0x73, 0x74, 0x61, 0x6e, 0x74, 0x32, 0x00,
  0x01, 0x00, 0x00, 0x00, 0x01, 0x00, 0x00, 0x00, 0xc2, 0xff, 0xff, 0xff,
  0x00, 0x00, 0x00, 0x01, 0x10, 0x00, 0x00, 0x00, 0x10, 0x00, 0x00, 0x00,
  0x03, 0x00, 0x00, 0x00, 0x1c, 0x00, 0x00, 0x00, 0x48, 0xff, 0xff, 0xff,
  0x0f, 0x00, 0x00, 0x00, 0x61, 0x72, 0x69, 0x74, 0x68, 0x2e, 0x63, 0x6f,
  0x6e, 0x73, 0x74, 0x61, 0x6e, 0x74, 0x31, 0x00, 0x02, 0x00, 0x00, 0x00,
  0x08, 0x00, 0x00, 0x00, 0x10, 0x00, 0x00, 0x00, 0x00, 0x00, 0x16, 0x00,
  0x18, 0x00, 0x14, 0x00, 0x00, 0x00, 0x10, 0x00, 0x0c, 0x00, 0x08, 0x00,
  0x00, 0x00, 0x00, 0x00, 0x00, 0x00, 0x07, 0x00, 0x16, 0x00, 0x00, 0x00,
  0x00, 0x00, 0x00, 0x01, 0x10, 0x00, 0x00, 0x00, 0x10, 0x00, 0x00, 0x00,
  0x02, 0x00, 0x00, 0x00, 0x1c, 0x00, 0x00, 0x00, 0x9c, 0xff, 0xff, 0xff,
  0x0e, 0x00, 0x00, 0x00, 0x61, 0x72, 0x69, 0x74, 0x68, 0x2e, 0x63, 0x6f,
  0x6e, 0x73, 0x74, 0x61, 0x6e, 0x74, 0x00, 0x00, 0x02, 0x00, 0x00, 0x00,
  0x01, 0x00, 0x00, 0x00, 0x08, 0x00, 0x00, 0x00, 0x00, 0x00, 0x16, 0x00,
  0x1c, 0x00, 0x18, 0x00, 0x00, 0x00, 0x14, 0x00, 0x10, 0x00, 0x0c, 0x00,
  0x00, 0x00, 0x00, 0x00, 0x08, 0x00, 0x07, 0x00, 0x16, 0x00, 0x00, 0x00,
  0x00, 0x00, 0x00, 0x01, 0x14, 0x00, 0x00, 0x00, 0x20, 0x00, 0x00, 0x00,
  0x20, 0x00, 0x00, 0x00, 0x01, 0x00, 0x00, 0x00, 0x3c, 0x00, 0x00, 0x00,
  0x02, 0x00, 0x00, 0x00, 0xff, 0xff, 0xff, 0xff, 0x05, 0x00, 0x00, 0x00,
  0x04, 0x00, 0x04, 0x00, 0x04, 0x00, 0x00, 0x00, 0x1e, 0x00, 0x00, 0x00,
  0x73, 0x65, 0x72, 0x76, 0x69, 0x6e, 0x67, 0x5f, 0x64, 0x65, 0x66, 0x61,
  0x75, 0x6c, 0x74, 0x5f, 0x6b, 0x65, 0x72, 0x61, 0x73, 0x5f, 0x74, 0x65,
  0x6e, 0x73, 0x6f, 0x72, 0x3a, 0x30, 0x00, 0x00, 0x02, 0x00, 0x00, 0x00,
  0x01, 0x00, 0x00, 0x00, 0x05, 0x00, 0x00, 0x00, 0x01, 0x00, 0x00, 0x00,
  0x10, 0x00, 0x00, 0x00, 0x0c, 0x00, 0x0c, 0x00, 0x0b, 0x00, 0x00, 0x00,
  0x00, 0x00, 0x04, 0x00, 0x0c, 0x00, 0x00, 0x00, 0x09, 0x00, 0x00, 0x00,
  0x00, 0x00, 0x00, 0x09
};
unsigned int modelo_vazao_tflite_len = 2848;
