#include <stdint.h>

const unsigned char modelo_vazao_tflite[] = {
  0x1C, 0x00, 0x00, 0x00, 0x54, 0x46, 0x4C, 0x33, 0x14, 0x00, 0x20, 0x00,
  0x1C, 0x00, 0x18, 0x00, 0x14, 0x00, 0x10, 0x00, 0x0C, 0x00, 0x00, 0x00,
  0x08, 0x00, 0x04, 0x00, 0x14, 0x00, 0x00, 0x00, 0x1C, 0x00, 0x00, 0x00,
  0x98, 0x00, 0x00, 0x00, 0xF0, 0x00, 0x00, 0x00, 0xA0, 0x08, 0x00, 0x00,
  0xB0, 0x08, 0x00, 0x00, 0x74, 0x0E, 0x00, 0x00, 0x03, 0x00, 0x00, 0x00,
  0x01, 0x00, 0x00, 0x00, 0x10, 0x00, 0x00, 0x00, 0x00, 0x00, 0x0A, 0x00,
  0x10, 0x00, 0x0C, 0x00, 0x08, 0x00, 0x04, 0x00, 0x0A, 0x00, 0x00, 0x00,
  0x0C, 0x00, 0x00, 0x00, 0x1C, 0x00, 0x00, 0x00, 0x3C, 0x00, 0x00, 0x00,
  0x0F, 0x00, 0x00, 0x00, 0x73, 0x65, 0x72, 0x76, 0x69, 0x6E, 0x67, 0x5F,
  0x64, 0x65, 0x66, 0x61, 0x75, 0x6C, 0x74, 0x00, 0x01, 0x00, 0x00, 0x00,
  0x04, 0x00, 0x00, 0x00, 0x90, 0xFF, 0xFF, 0xFF, 0x0A, 0x00, 0x00, 0x00,
  0x04, 0x00, 0x00, 0x00, 0x08, 0x00, 0x00, 0x00, 0x6F, 0x75, 0x74, 0x70,
  0x75, 0x74, 0x5F, 0x30, 0x00, 0x00, 0x00, 0x00, 0x01, 0x00, 0x00, 0x00,
  0x04, 0x00, 0x00, 0x00, 0x46, 0xF7, 0xFF, 0xFF, 0x04, 0x00, 0x00, 0x00,
  0x0F, 0x00, 0x00, 0x00, 0x6B, 0x65, 0x72, 0x61, 0x73, 0x5F, 0x74, 0x65,
  0x6E, 0x73, 0x6F, 0x72, 0x5F, 0x31, 0x36, 0x00, 0x02, 0x00, 0x00, 0x00,
  0x34, 0x00, 0x00, 0x00, 0x04, 0x00, 0x00, 0x00, 0xDC, 0xFF, 0xFF, 0xFF,
  0x0D, 0x00, 0x00, 0x00, 0x04, 0x00, 0x00, 0x00, 0x13, 0x00, 0x00, 0x00,
  0x43, 0x4F, 0x4E, 0x56, 0x45, 0x52, 0x53, 0x49, 0x4F, 0x4E, 0x5F, 0x4D,
  0x45, 0x54, 0x41, 0x44, 0x41, 0x54, 0x41, 0x00, 0x08, 0x00, 0x0C, 0x00,
  0x08, 0x00, 0x04, 0x00, 0x08, 0x00, 0x00, 0x00, 0x0C, 0x00, 0x00, 0x00,
  0x04, 0x00, 0x00, 0x00, 0x13, 0x00, 0x00, 0x00, 0x6D, 0x69, 0x6E, 0x5F,
  0x72, 0x75, 0x6E, 0x74, 0x69, 0x6D, 0x65, 0x5F, 0x76, 0x65, 0x72, 0x73,
  0x69, 0x6F, 0x6E, 0x00, 0x0E, 0x00, 0x00, 0x00, 0xAC, 0x07, 0x00, 0x00,
  0xA4, 0x07, 0x00, 0x00, 0x94, 0x06, 0x00, 0x00, 0x84, 0x02, 0x00, 0x00,
  0x64, 0x02, 0x00, 0x00, 0x14, 0x02, 0x00, 0x00, 0xC4, 0x01, 0x00, 0x00,
  0xB4, 0x00, 0x00, 0x00, 0xAC, 0x00, 0x00, 0x00, 0xA4, 0x00, 0x00, 0x00,
  0x9C, 0x00, 0x00, 0x00, 0x94, 0x00, 0x00, 0x00, 0x74, 0x00, 0x00, 0x00,
  0x04, 0x00, 0x00, 0x00, 0xFA, 0xF7, 0xFF, 0xFF, 0x04, 0x00, 0x00, 0x00,
  0x60, 0x00, 0x00, 0x00, 0x0C, 0x00, 0x00, 0x00, 0x08, 0x00, 0x0E, 0x00,
  0x08, 0x00, 0x04, 0x00, 0x08, 0x00, 0x00, 0x00, 0x10, 0x00, 0x00, 0x00,
  0x28, 0x00, 0x00, 0x00, 0x00, 0x00, 0x06, 0x00, 0x08, 0x00, 0x04, 0x00,
  0x06, 0x00, 0x00, 0x00, 0x04, 0x00, 0x00, 0x00, 0x01, 0x00, 0x00, 0x00,
  0xEA, 0x03, 0x00, 0x00, 0x0C, 0x00, 0x18, 0x00, 0x14, 0x00, 0x10, 0x00,
  0x0C, 0x00, 0x04, 0x00, 0x0C, 0x00, 0x00, 0x00, 0x4A, 0xB4, 0x1E, 0x53,
  0x71, 0x8A, 0xF6, 0xF7, 0x02, 0x00, 0x00, 0x00, 0x02, 0x00, 0x00, 0x00,
  0x04, 0x00, 0x00, 0x00, 0x06, 0x00, 0x00, 0x00, 0x32, 0x2E, 0x31, 0x39,
  0x2E, 0x30, 0x00, 0x00, 0x66, 0xF8, 0xFF, 0xFF, 0x04, 0x00, 0x00, 0x00,
  0x10, 0x00, 0x00, 0x00, 0x31, 0x2E, 0x35, 0x2E, 0x30, 0x00, 0x00, 0x00,
  0x00, 0x00, 0x00, 0x00, 0x00, 0x00, 0x00, 0x00, 0x70, 0xF3, 0xFF, 0xFF,
  0x74, 0xF3, 0xFF, 0xFF, 0x78, 0xF3, 0xFF, 0xFF, 0x7C, 0xF3, 0xFF, 0xFF,
  0x92, 0xF8, 0xFF, 0xFF, 0x04, 0x00, 0x00, 0x00, 0x00, 0x01, 0x00, 0x00,
  0x9C, 0x3E, 0xBE, 0x3E, 0x5C, 0x05, 0xBE, 0x3D, 0xC1, 0x0E, 0xAF, 0xBF,
  0xCB, 0xC4, 0x57, 0xBE, 0x88, 0x75, 0x8D, 0x3C, 0x63, 0x8E, 0xB3, 0x3E,
  0x0C, 0x52, 0xF6, 0x3F, 0xA6, 0x67, 0xDA, 0x3D, 0x1A, 0x9E, 0xC6, 0x3E,
  0x83, 0x5A, 0x66, 0xBE, 0xF1, 0x90, 0xAA, 0x40, 0xCC, 0x69, 0xFF, 0xBE,
  0x10, 0xC4, 0x15, 0x3E, 0xF3, 0x70, 0xA0, 0xBD, 0xDD, 0x6F, 0xA4, 0xBF,
  0xCA, 0xC3, 0x46, 0xBC, 0x4A, 0xC6, 0x7A, 0xBE, 0xBE, 0xA0, 0x21, 0xBE,
  0x3A, 0x85, 0xB3, 0xBE, 0x14, 0xEE, 0xBC, 0xBE, 0x9B, 0x52, 0x17, 0x3D,
  0x57, 0xB0, 0xA0, 0xBC, 0x87, 0x3D, 0x2C, 0x40, 0xB7, 0x0E, 0xEF, 0x3E,
  0x25, 0x6A, 0xFC, 0xBD, 0x7E, 0x11, 0x02, 0x3F, 0x9C, 0xA3, 0xB0, 0xBF,
  0x75, 0xCE, 0x27, 0x3E, 0x9F, 0x5B, 0xDF, 0x3E, 0x03, 0x88, 0x3E, 0x3C,
  0x2B, 0x19, 0x0C, 0x40, 0x32, 0x07, 0xA9, 0x3E, 0x12, 0x36, 0xFE, 0xBE,
  0x0B, 0x9C, 0xC8, 0xBE, 0xC2, 0xE5, 0xE0, 0xBE, 0xB7, 0x73, 0xFF, 0xBE,
  0x35, 0xDF, 0x09, 0x3F, 0xE1, 0x7D, 0x59, 0x3E, 0x03, 0x72, 0x3A, 0x40,
  0x00, 0x33, 0xB4, 0x3E, 0xEE, 0xEE, 0x15, 0xBE, 0x5C, 0x20, 0x7A, 0xBE,
  0x7C, 0x7F, 0xFE, 0x3F, 0x7B, 0x5A, 0x90, 0x3E, 0x3D, 0x2E, 0x13, 0x3F,
  0x25, 0x30, 0xAF, 0x3D, 0xDB, 0xF7, 0x2D, 0xC0, 0xF8, 0x97, 0x7C, 0x3F,
  0xA2, 0xDC, 0xC1, 0x3E, 0xB8, 0x29, 0x68, 0xBD, 0x4F, 0xEA, 0xBB, 0xBF,
  0xAD, 0x0D, 0xA1, 0xBE, 0xE7, 0x0D, 0x0E, 0x3F, 0x52, 0x89, 0x8F, 0x3E,
  0x6F, 0xE1, 0xD2, 0x3E, 0xF0, 0x64, 0xFA, 0xBE, 0xAD, 0xA7, 0x18, 0xBE,
  0x28, 0xB1, 0x62, 0x3E, 0x36, 0x38, 0x05, 0x40, 0x79, 0xDE, 0xA1, 0x3E,
  0x7F, 0x18, 0x57, 0x3E, 0xCE, 0x9B, 0x7C, 0x3E, 0xA9, 0xA1, 0xCB, 0xBE,
  0x0E, 0x97, 0x15, 0x3F, 0x9E, 0xF9, 0xFF, 0xFF, 0x04, 0x00, 0x00, 0x00,
  0x40, 0x00, 0x00, 0x00, 0xA5, 0xA9, 0x1F, 0x3F, 0xA3, 0x0C, 0xCE, 0xBC,
  0x74, 0xA6, 0x74, 0x3E, 0xC4, 0xA1, 0x4D, 0x3F, 0x00, 0x00, 0x00, 0x00,
  0x5F, 0xD7, 0x1C, 0xBC, 0x55, 0x7C, 0x1F, 0x3F, 0xA9, 0xD0, 0x0F, 0xBD,
  0x00, 0x00, 0x00, 0x00, 0xBB, 0x47, 0x30, 0xBD, 0x40, 0x45, 0x70, 0x3F,
  0xEF, 0xD5, 0x1A, 0x3E, 0x7C, 0x1A, 0x29, 0x3F, 0x25, 0x52, 0xA8, 0x3F,
  0xC5, 0x56, 0x42, 0xBC, 0xC2, 0xD0, 0x81, 0x3F, 0xEA, 0xF9, 0xFF, 0xFF,
  0x04, 0x00, 0x00, 0x00, 0x40, 0x00, 0x00, 0x00, 0x92, 0x0D, 0x40, 0x3E,
  0x00, 0x00, 0x00, 0x00, 0x99, 0xBE, 0x25, 0x3F, 0x00, 0x4C, 0x82, 0xBC,
  0x00, 0x00, 0x00, 0x00, 0x47, 0xD7, 0x37, 0x3E, 0x00, 0x00, 0x00, 0x00,
  0xA7, 0x10, 0x03, 0xBD, 0x4F, 0x45, 0x32, 0x3F, 0xF3, 0x76, 0xB7, 0xBC,
  0xE0, 0x21, 0xAC, 0x3E, 0x73, 0xAD, 0x4F, 0x3F, 0x8B, 0xCA, 0x43, 0x3E,
  0x00, 0x00, 0x00, 0x00, 0xC5, 0x86, 0xDC, 0x3D, 0x35, 0x38, 0x52, 0x3F,
  0x36, 0xFA, 0xFF, 0xFF, 0x04, 0x00, 0x00, 0x00, 0x10, 0x00, 0x00, 0x00,
  0x04, 0x16, 0xB4, 0xBE, 0x78, 0x27, 0xC3, 0x3D, 0xF3, 0x1F, 0xE9, 0x3E,
  0x7F, 0x76, 0x0B, 0xBF, 0x52, 0xFA, 0xFF, 0xFF, 0x04, 0x00, 0x00, 0x00,
  0x00, 0x04, 0x00, 0x00, 0x7C, 0x45, 0x74, 0xBF, 0x23, 0xB3, 0x97, 0x3F,
  0xC2, 0x2B, 0xF7, 0x3E, 0xC1, 0xBE, 0x7B, 0xBF, 0x74, 0x26, 0xD4, 0xBD,
  0x23, 0xF9, 0x50, 0x3F, 0xEC, 0xA1, 0xC1, 0xBE, 0x9D, 0x02, 0x44, 0x3F,
  0xCE, 0xC4, 0x26, 0x3E, 0x1F, 0xDF, 0x48, 0x3F, 0x4A, 0x29, 0x25, 0x3F,
  0x62, 0x60, 0x9C, 0xBF, 0xC9, 0x12, 0xA9, 0xBF, 0xEC, 0x4B, 0x24, 0x3F,
  0x07, 0x51, 0x44, 0x3F, 0x9E, 0x4A, 0x2D, 0x3F, 0x90, 0x06, 0xC0, 0xBE,
  0xBA, 0x84, 0x28, 0x3E, 0x40, 0x61, 0x05, 0x3C, 0xFF, 0x32, 0x9D, 0x3E,
  0xD2, 0xD3, 0x95, 0xBE, 0xB8, 0xA3, 0xC1, 0xBD, 0xE6, 0x80, 0xC4, 0xBE,
  0x6B, 0xFE, 0xD1, 0xBE, 0xBB, 0x22, 0x85, 0x3E, 0xF9, 0xE7, 0xB5, 0xBE,
  0x46, 0x2A, 0x8F, 0xBE, 0x78, 0xDA, 0x51, 0xBD, 0x7D, 0xB8, 0xA0, 0xBE,
  0x08, 0x0E, 0x94, 0xBE, 0x96, 0x2A, 0x76, 0x3E, 0x48, 0xD5, 0x68, 0xBD,
  0x1D, 0x9F, 0x90, 0x3F, 0x00, 0xDD, 0x69, 0xBE, 0xF6, 0x4E, 0xB6, 0x3E,
  0x83, 0x26, 0x60, 0x3F, 0x59, 0x6B, 0x76, 0xBE, 0x93, 0x57, 0x84, 0xBE,
  0x08, 0xA0, 0xCC, 0x3E, 0x16, 0x64, 0x89, 0xBE, 0x6E, 0x28, 0x16, 0xBE,
  0x13, 0x24, 0x0D, 0x3E, 0xAC, 0x1A, 0xC4, 0x3E, 0xE7, 0x42, 0x8C, 0x3D,
  0xD1, 0xA4, 0x82, 0x3F, 0xF9, 0x13, 0x4C, 0x3F, 0xBB, 0x90, 0x4D, 0xBF,
  0x51, 0x64, 0x0F, 0x3F, 0x30, 0x38, 0x1F, 0xBE, 0x0F, 0x6E, 0x4E, 0xBE,
  0x8A, 0x03, 0xB2, 0xBE, 0x85, 0xB6, 0xBF, 0x3E, 0xF2, 0xA5, 0x10, 0xBE,
  0x42, 0x8B, 0xAB, 0xBD, 0x70, 0x02, 0x8F, 0xBE, 0xEF, 0x9F, 0xC9, 0xBD,
  0xCE, 0xE8, 0x12, 0x3E, 0x70, 0xF9, 0xAF, 0xBE, 0xBE, 0xDA, 0x9F, 0xBD,
  0x3B, 0x4B, 0x41, 0xBE, 0x21, 0x8A, 0xA3, 0x3E, 0xC7, 0x57, 0x5C, 0xBE,
  0x30, 0x47, 0xA3, 0xBE, 0x63, 0x53, 0xB1, 0x3D, 0xB6, 0x3D, 0x9F, 0xBE,
  0x30, 0x9F, 0xA6, 0xBE, 0xE0, 0xB1, 0xBC, 0xBD, 0x50, 0xD5, 0x16, 0xBE,
  0x82, 0xBF, 0x5D, 0x3E, 0xE2, 0x04, 0xB2, 0xBE, 0x80, 0xA8, 0x7D, 0xBB,
  0x80, 0x75, 0x7C, 0xBE, 0xD3, 0x4F, 0x8C, 0x3E, 0x00, 0xCC, 0x51, 0xBE,
  0x74, 0x83, 0xB5, 0x3D, 0x85, 0x34, 0xB4, 0x3E, 0x8C, 0xF1, 0xD3, 0xBE,
  0x3E, 0x22, 0x12, 0x3E, 0x5A, 0x22, 0x9A, 0xBE, 0xDE, 0x12, 0x3C, 0x3E,
  0x02, 0x68, 0xB5, 0x3E, 0x9B, 0x7F, 0x57, 0xBF, 0x83, 0x9A, 0x1A, 0xC0,
  0x13, 0xEB, 0x74, 0x3F, 0xA2, 0x77, 0xCF, 0xBE, 0x10, 0xD0, 0x26, 0xC0,
  0x90, 0x95, 0x06, 0x3F, 0xF1, 0x9B, 0xD3, 0xBF, 0x7F, 0x7C, 0xD3, 0x3E,
  0x64, 0x4E, 0xC0, 0xBF, 0x2F, 0x54, 0xA6, 0xBD, 0xEF, 0x13, 0x20, 0x40,
  0x70, 0x71, 0x7B, 0x3F, 0x1E, 0x5E, 0xEC, 0x3E, 0x67, 0xCF, 0x15, 0xC0,
  0x61, 0x88, 0x12, 0xBE, 0xC8, 0xCC, 0x97, 0xBE, 0x1F, 0xD7, 0xB2, 0xBE,
  0xCC, 0xCC, 0x1B, 0xBE, 0x74, 0x97, 0xFB, 0x3D, 0xB9, 0xB5, 0xB9, 0x3E,
  0x00, 0x20, 0x70, 0xBD, 0x86, 0x27, 0x6F, 0x3E, 0x45, 0x19, 0xC6, 0xBE,
  0xCA, 0x3E, 0x18, 0x3E, 0x65, 0x13, 0x97, 0xBE, 0x29, 0xB6, 0x9B, 0x3E,
  0x84, 0x3D, 0xF4, 0xBD, 0xDC, 0x48, 0xD0, 0xBE, 0xBF, 0xC1, 0xC0, 0xBE,
  0x9E, 0x65, 0x4B, 0x3E, 0x70, 0x51, 0x8A, 0xBE, 0x92, 0xBE, 0x5E, 0x3D,
  0x8E, 0xCF, 0xE2, 0xBE, 0x6D, 0x30, 0x49, 0x3C, 0xFB, 0x49, 0x4B, 0x3D,
  0x4A, 0xDE, 0x1E, 0x3E, 0x55, 0xB4, 0x20, 0xBE, 0xE0, 0x8B, 0xBC, 0xBD,
  0x5A, 0x42, 0xB1, 0x3E, 0xDD, 0x11, 0xD4, 0x3E, 0x3C, 0xFA, 0x05, 0x3E,
  0x5C, 0x96, 0xBA, 0xBE, 0xDF, 0xD0, 0x51, 0xBE, 0xEB, 0x52, 0xD4, 0xBE,
  0x79, 0x5F, 0x1D, 0x3D, 0x97, 0x1F, 0x92, 0xBE, 0x05, 0xDE, 0x6B, 0xBE,
  0xA5, 0xC0, 0x8E, 0x3E, 0x86, 0x37, 0x7E, 0xBE, 0x5B, 0xB5, 0x48, 0x3F,
  0x92, 0x1B, 0x73, 0x3F, 0xB4, 0xBC, 0xF4, 0x3D, 0x1D, 0xAC, 0x19, 0x3F,
  0x53, 0xB7, 0xEF, 0xBE, 0x3F, 0x41, 0x1D, 0x3E, 0x40, 0xC8, 0x60, 0x3D,
  0x67, 0x21, 0xC4, 0x3D, 0xD3, 0x12, 0x86, 0x3F, 0x97, 0xF6, 0xEE, 0xBE,
  0x03, 0x71, 0xB7, 0x3E, 0x8B, 0xC4, 0xCF, 0x3E, 0x77, 0x14, 0x26, 0xBF,
  0x12, 0x2D, 0xCC, 0x3E, 0xE1, 0x51, 0x69, 0x3F, 0x68, 0x05, 0xAF, 0xBF,
  0x64, 0xC6, 0x05, 0xC0, 0x22, 0xB8, 0x62, 0x3F, 0xBE, 0x21, 0x2E, 0x3E,
  0xFD, 0xFE, 0x89, 0xBF, 0xED, 0xCF, 0x36, 0x3F, 0xED, 0x03, 0xF3, 0xBE,
  0x18, 0xBF, 0x00, 0x3D, 0x61, 0xD5, 0xDB, 0xBE, 0x5F, 0x64, 0x32, 0xBE,
  0x9B, 0xB7, 0x8B, 0x3F, 0xA4, 0x9B, 0xDC, 0x3E, 0xF0, 0xC7, 0x4B, 0xBE,
  0x01, 0x15, 0xE4, 0xBF, 0xC6, 0x40, 0xF0, 0x3E, 0x55, 0x4B, 0x4C, 0xBF,
  0xD2, 0x88, 0xD8, 0x3F, 0x57, 0x94, 0x27, 0x40, 0x3E, 0x63, 0xB3, 0xBE,
  0x32, 0x6C, 0x19, 0x3E, 0xFB, 0x75, 0x04, 0x40, 0x17, 0x4F, 0x3D, 0xBF,
  0x68, 0xA3, 0x91, 0x3F, 0x00, 0xAE, 0xA3, 0xBA, 0xE0, 0x49, 0x64, 0x3F,
  0xF5, 0x08, 0x94, 0x3F, 0xE5, 0x20, 0xD0, 0xBF, 0xAC, 0x1F, 0x84, 0xBF,
  0x50, 0xFD, 0x43, 0x3F, 0x6B, 0xA2, 0x1A, 0x40, 0x04, 0x5F, 0x29, 0xBE,
  0xCC, 0xE8, 0x70, 0x3F, 0xD6, 0x53, 0x1E, 0xBF, 0xEE, 0x74, 0xF5, 0xB9,
  0x6A, 0x42, 0xEA, 0x3F, 0x7B, 0x5F, 0x82, 0x3E, 0x6A, 0x63, 0x15, 0xBF,
  0xCE, 0xB8, 0x27, 0x3F, 0x4C, 0xA5, 0xCA, 0xBE, 0xD8, 0x86, 0xBF, 0xBD,
  0x61, 0xD0, 0x0E, 0xBE, 0xB1, 0x5B, 0x18, 0x3E, 0xD8, 0xA7, 0x81, 0x3E,
  0xC4, 0x9E, 0xF7, 0x3F, 0x5C, 0x87, 0x00, 0x3F, 0x3E, 0x0B, 0x08, 0xBF,
  0xC0, 0x30, 0x48, 0x3F, 0xF7, 0xF7, 0xFD, 0x3E, 0xD8, 0x91, 0x82, 0xBF,
  0xF0, 0xA6, 0x19, 0xC0, 0x94, 0x98, 0x27, 0x3F, 0x87, 0x9E, 0xD0, 0xBE,
  0xBF, 0xE1, 0x19, 0xC0, 0x4E, 0x3D, 0x88, 0x3F, 0xC1, 0xE1, 0xD9, 0xBF,
  0xA4, 0x86, 0x29, 0xBE, 0x79, 0x8E, 0xC5, 0xBF, 0x05, 0xAB, 0x39, 0xBE,
  0x97, 0x74, 0x16, 0x40, 0xD6, 0x05, 0x8A, 0x3F, 0x4A, 0x0B, 0x45, 0xBD,
  0xE4, 0x89, 0x11, 0xC0, 0xD3, 0xC8, 0xAA, 0x3E, 0x3A, 0x4F, 0x32, 0xBE,
  0xEF, 0xE5, 0xA4, 0xBE, 0x70, 0xFC, 0xCB, 0xBE, 0xBE, 0x9A, 0x51, 0x3E,
  0x43, 0x9C, 0xDC, 0xBE, 0x26, 0xF3, 0x59, 0xBE, 0xE7, 0x97, 0xD1, 0xBE,
  0x70, 0xD0, 0x0E, 0x3D, 0x9A, 0x41, 0x9E, 0xBE, 0x02, 0x8C, 0x3F, 0xBE,
  0xD8, 0x05, 0x0B, 0x3D, 0x7A, 0x28, 0x21, 0xBE, 0x7E, 0xA3, 0x92, 0xBE,
  0x60, 0xB8, 0xB4, 0xBE, 0xDA, 0x6E, 0x9B, 0xBE, 0xF3, 0xFB, 0xD5, 0xBE,
  0x31, 0x12, 0x96, 0xBE, 0xC6, 0x68, 0x2E, 0x3F, 0x13, 0x01, 0x85, 0x3F,
  0x4B, 0x87, 0x47, 0xBF, 0x00, 0x5B, 0x48, 0x3D, 0xA2, 0xBC, 0x70, 0x3F,
  0x23, 0x79, 0x8F, 0xBE, 0x87, 0x66, 0xF3, 0x3E, 0xAB, 0xCF, 0xC2, 0xBE,
  0x50, 0x5A, 0x76, 0x3F, 0x35, 0x49, 0x63, 0x3F, 0x70, 0xED, 0x23, 0xBF,
  0x4D, 0x36, 0x82, 0xBF, 0x82, 0x3D, 0xC9, 0xBC, 0x39, 0xB2, 0x9B, 0x3F,
  0x13, 0xF0, 0xE3, 0xBD, 0xAF, 0xCF, 0xC1, 0x3F, 0x33, 0x8C, 0x41, 0xBE,
  0x4D, 0x89, 0x3B, 0xBE, 0x2C, 0x54, 0xFE, 0x3F, 0x5B, 0x05, 0xD9, 0x3E,
  0xF5, 0xA0, 0x8A, 0xBE, 0x9C, 0x1D, 0xA3, 0x3F, 0xB9, 0x18, 0x50, 0xBF,
  0x70, 0xFB, 0x06, 0xBE, 0x99, 0x1D, 0x30, 0xBF, 0x84, 0x64, 0x22, 0x3F,
  0x7D, 0x92, 0xC6, 0x3F, 0xD0, 0x08, 0x1A, 0x40, 0x04, 0x1A, 0x30, 0x3F,
  0x3E, 0x59, 0x9D, 0xBF, 0xF1, 0x96, 0x09, 0x3F, 0x5E, 0xFE, 0xFF, 0xFF,
  0x04, 0x00, 0x00, 0x00, 0x00, 0x01, 0x00, 0x00, 0xB2, 0xF6, 0x60, 0xC0,
  0x8D, 0x36, 0x07, 0xBF, 0xC7, 0x2C, 0x1D, 0xBF, 0xBD, 0x95, 0xEB, 0xBC,
  0x97, 0x2E, 0x95, 0xBE, 0x12, 0xA6, 0x48, 0x40, 0xEE, 0xFD, 0x10, 0xBE,
  0x6C, 0x76, 0xA8, 0xBE, 0xBC, 0xB2, 0x99, 0xBF, 0x01, 0xB6, 0xC2, 0x3F,
  0x5B, 0xE0, 0x84, 0xC0, 0xB5, 0xF1, 0xE5, 0x3E, 0x56, 0x60, 0x36, 0x40,
  0x80, 0xA1, 0x8E, 0x3D, 0x2F, 0x4C, 0xB5, 0xBF, 0xAB, 0xA0, 0x14, 0x3F,
  0x18, 0x0B, 0xEE, 0xBF, 0x78, 0x8E, 0x86, 0x3D, 0xCB, 0x58, 0x09, 0x3F,
  0x11, 0x5F, 0xB1, 0xBE, 0xB8, 0x03, 0xD1, 0x3D, 0xAC, 0xDF, 0xE3, 0xBE,
  0xD4, 0x67, 0x4A, 0x3E, 0x0D, 0x99, 0xE0, 0x3E, 0x2B, 0x93, 0x4E, 0xBE,
  0xA8, 0x1E, 0x30, 0x3E, 0xE7, 0x70, 0x00, 0xBE, 0x1E, 0x87, 0xD4, 0x3E,
  0x52, 0x2F, 0x00, 0xBF, 0xD2, 0x32, 0x01, 0xBF, 0x1D, 0xCF, 0x26, 0xC0,
  0x56, 0xC8, 0x63, 0x3D, 0x70, 0x15, 0xBE, 0xBE, 0xE4, 0x7F, 0x17, 0x3E,
  0x69, 0x98, 0xB0, 0x3E, 0x2B, 0x4F, 0x73, 0x3E, 0xB2, 0xBF, 0x83, 0x3E,
  0xFD, 0x49, 0x9B, 0xC0, 0x86, 0xC3, 0x9B, 0xBE, 0x97, 0xED, 0x17, 0xBE,
  0x29, 0x93, 0x29, 0x3E, 0x8D, 0xC5, 0x2B, 0xC0, 0xE7, 0x0E, 0x7C, 0x3E,
  0xBC, 0x28, 0x89, 0x3F, 0x99, 0xBD, 0x8D, 0xC0, 0x59, 0x2D, 0xFD, 0xBE,
  0x35, 0x82, 0x6D, 0x3C, 0x2A, 0xB0, 0x14, 0xBD, 0x91, 0xA4, 0x84, 0x3F,
  0x08, 0x14, 0x02, 0x3E, 0x04, 0x36, 0xC4, 0xBF, 0xE3, 0x28, 0x94, 0xBD,
  0xC2, 0x22, 0x37, 0xBE, 0x0B, 0x8E, 0xE8, 0xBD, 0xD6, 0x23, 0x35, 0xBE,
  0x11, 0x4F, 0x0A, 0x3E, 0x22, 0xC5, 0x65, 0xBF, 0xCE, 0x22, 0x0B, 0xBE,
  0xE3, 0x8F, 0x18, 0x3F, 0x82, 0x77, 0x33, 0xC0, 0x7E, 0x78, 0x8E, 0xBE,
  0x4E, 0x6C, 0xEE, 0xBE, 0x1E, 0x6A, 0x1B, 0x3F, 0xD4, 0xB5, 0x88, 0xC0,
  0x58, 0xFA, 0xFF, 0xFF, 0x5C, 0xFA, 0xFF, 0xFF, 0x0F, 0x00, 0x00, 0x00,
  0x4D, 0x4C, 0x49, 0x52, 0x20, 0x43, 0x6F, 0x6E, 0x76, 0x65, 0x72, 0x74,
  0x65, 0x64, 0x2E, 0x00, 0x01, 0x00, 0x00, 0x00, 0x14, 0x00, 0x00, 0x00,
  0x00, 0x00, 0x0E, 0x00, 0x18, 0x00, 0x14, 0x00, 0x10, 0x00, 0x0C, 0x00,
  0x08, 0x00, 0x04, 0x00, 0x0E, 0x00, 0x00, 0x00, 0x14, 0x00, 0x00, 0x00,
  0x1C, 0x00, 0x00, 0x00, 0x24, 0x01, 0x00, 0x00, 0x28, 0x01, 0x00, 0x00,
  0x2C, 0x01, 0x00, 0x00, 0x04, 0x00, 0x00, 0x00, 0x6D, 0x61, 0x69, 0x6E,
  0x00, 0x00, 0x00, 0x00, 0x04, 0x00, 0x00, 0x00, 0xCC, 0x00, 0x00, 0x00,
  0x84, 0x00, 0x00, 0x00, 0x50, 0x00, 0x00, 0x00, 0x14, 0x00, 0x00, 0x00,
  0x00, 0x00, 0x0E, 0x00, 0x1A, 0x00, 0x14, 0x00, 0x10, 0x00, 0x0C, 0x00,
  0x0B, 0x00, 0x04, 0x00, 0x0E, 0x00, 0x00, 0x00, 0x1C, 0x00, 0x00, 0x00,
  0x00, 0x00, 0x00, 0x09, 0x1C, 0x00, 0x00, 0x00, 0x20, 0x00, 0x00, 0x00,
  0x01, 0x00, 0x00, 0x00, 0x00, 0x00, 0x06, 0x00, 0x08, 0x00, 0x04, 0x00,
  0x06, 0x00, 0x00, 0x00, 0x00, 0x00, 0x80, 0x3F, 0x01, 0x00, 0x00, 0x00,
  0x0A, 0x00, 0x00, 0x00, 0x01, 0x00, 0x00, 0x00, 0x09, 0x00, 0x00, 0x00,
  0x9A, 0xFF, 0xFF, 0xFF, 0x10, 0x00, 0x00, 0x00, 0x00, 0x00, 0x00, 0x08,
  0x0C, 0x00, 0x00, 0x00, 0x10, 0x00, 0x00, 0x00, 0x20, 0xFB, 0xFF, 0xFF,
  0x01, 0x00, 0x00, 0x00, 0x09, 0x00, 0x00, 0x00, 0x03, 0x00, 0x00, 0x00,
  0x08, 0x00, 0x00, 0x00, 0x01, 0x00, 0x00, 0x00, 0x03, 0x00, 0x00, 0x00,
  0xCA, 0xFF, 0xFF, 0xFF, 0x10, 0x00, 0x00, 0x00, 0x00, 0x00, 0x00, 0x08,
  0x10, 0x00, 0x00, 0x00, 0x14, 0x00, 0x00, 0x00, 0xBA, 0xFF, 0xFF, 0xFF,
  0x00, 0x00, 0x00, 0x01, 0x01, 0x00, 0x00, 0x00, 0x08, 0x00, 0x00, 0x00,
  0x03, 0x00, 0x00, 0x00, 0x07, 0x00, 0x00, 0x00, 0x02, 0x00, 0x00, 0x00,
  0x04, 0x00, 0x00, 0x00, 0x00, 0x00, 0x0E, 0x00, 0x16, 0x00, 0x00, 0x00,
  0x10, 0x00, 0x0C, 0x00, 0x0B, 0x00, 0x04, 0x00, 0x0E, 0x00, 0x00, 0x00,
  0x18, 0x00, 0x00, 0x00, 0x00, 0x00, 0x00, 0x08, 0x18, 0x00, 0x00, 0x00,
  0x1C, 0x00, 0x00, 0x00, 0x00, 0x00, 0x06, 0x00, 0x08, 0x00, 0x07, 0x00,
  0x06, 0x00, 0x00, 0x00, 0x00, 0x00, 0x00, 0x01, 0x01, 0x00, 0x00, 0x00,
  0x07, 0x00, 0x00, 0x00, 0x03, 0x00, 0x00, 0x00, 0x00, 0x00, 0x00, 0x00,
  0x06, 0x00, 0x00, 0x00, 0x05, 0x00, 0x00, 0x00, 0x01, 0x00, 0x00, 0x00,
  0x0A, 0x00, 0x00, 0x00, 0x01, 0x00, 0x00, 0x00, 0x00, 0x00, 0x00, 0x00,
  0x0B, 0x00, 0x00, 0x00, 0x08, 0x04, 0x00, 0x00, 0xB0, 0x03, 0x00, 0x00,
  0x58, 0x03, 0x00, 0x00, 0x1C, 0x03, 0x00, 0x00, 0xE0, 0x02, 0x00, 0x00,
  0x80, 0x02, 0x00, 0x00, 0x2C, 0x02, 0x00, 0x00, 0x88, 0x01, 0x00, 0x00,
  0xE4, 0x00, 0x00, 0x00, 0x60, 0x00, 0x00, 0x00, 0x04, 0x00, 0x00, 0x00,
  0x3A, 0xFC, 0xFF, 0xFF, 0x00, 0x00, 0x00, 0x01, 0x14, 0x00, 0x00, 0x00,
  0x1C, 0x00, 0x00, 0x00, 0x1C, 0x00, 0x00, 0x00, 0x0B, 0x00, 0x00, 0x00,
  0x34, 0x00, 0x00, 0x00, 0x02, 0x00, 0x00, 0x00, 0xFF, 0xFF, 0xFF, 0xFF,
  0x04, 0x00, 0x00, 0x00, 0x24, 0xFC, 0xFF, 0xFF, 0x1B, 0x00, 0x00, 0x00,
  0x53, 0x74, 0x61, 0x74, 0x65, 0x66, 0x75, 0x6C, 0x50, 0x61, 0x72, 0x74,
  0x69, 0x74, 0x69, 0x6F, 0x6E, 0x65, 0x64, 0x43, 0x61, 0x6C, 0x6C, 0x5F,
  0x31, 0x3A, 0x30, 0x00, 0x02, 0x00, 0x00, 0x00, 0x01, 0x00, 0x00, 0x00,
  0x04, 0x00, 0x00, 0x00, 0x92, 0xFC, 0xFF, 0xFF, 0x00, 0x00, 0x00, 0x01,
  0x14, 0x00, 0x00, 0x00, 0x1C, 0x00, 0x00, 0x00, 0x1C, 0x00, 0x00, 0x00,
  0x0A, 0x00, 0x00, 0x00, 0x5C, 0x00, 0x00, 0x00, 0x02, 0x00, 0x00, 0x00,
  0xFF, 0xFF, 0xFF, 0xFF, 0x04, 0x00, 0x00, 0x00, 0x7C, 0xFC, 0xFF, 0xFF,
  0x42, 0x00, 0x00, 0x00, 0x73, 0x65, 0x71, 0x75, 0x65, 0x6E, 0x74, 0x69,
  0x61, 0x6C, 0x5F, 0x34, 0x5F, 0x31, 0x2F, 0x64, 0x65, 0x6E, 0x73, 0x65,
  0x5F, 0x31, 0x34, 0x5F, 0x31, 0x2F, 0x4D, 0x61, 0x74, 0x4D, 0x75, 0x6C,
  0x3B, 0x73, 0x65, 0x71, 0x75, 0x65, 0x6E, 0x74, 0x69, 0x61, 0x6C, 0x5F,
  0x34, 0x5F, 0x31, 0x2F, 0x64, 0x65, 0x6E, 0x73, 0x65, 0x5F, 0x31, 0x34,
  0x5F, 0x31, 0x2F, 0x42, 0x69, 0x61, 0x73, 0x41, 0x64, 0x64, 0x00, 0x00,
  0x02, 0x00, 0x00, 0x00, 0x01, 0x00, 0x00, 0x00, 0x04, 0x00, 0x00, 0x00,
  0x12, 0xFD, 0xFF, 0xFF, 0x00, 0x00, 0x00, 0x01, 0x14, 0x00, 0x00, 0x00,
  0x1C, 0x00, 0x00, 0x00, 0x1C, 0x00, 0x00, 0x00, 0x09, 0x00, 0x00, 0x00,
  0x7C, 0x00, 0x00, 0x00, 0x02, 0x00, 0x00, 0x00, 0xFF, 0xFF, 0xFF, 0xFF,
  0x10, 0x00, 0x00, 0x00, 0xFC, 0xFC, 0xFF, 0xFF, 0x61, 0x00, 0x00, 0x00,
  0x73, 0x65, 0x71, 0x75, 0x65, 0x6E, 0x74, 0x69, 0x61, 0x6C, 0x5F, 0x34,
  0x5F, 0x31, 0x2F, 0x64, 0x65, 0x6E, 0x73, 0x65, 0x5F, 0x31, 0x33, 0x5F,
  0x31, 0x2F, 0x4D, 0x61, 0x74, 0x4D, 0x75, 0x6C, 0x3B, 0x73, 0x65, 0x71,
  0x75, 0x65, 0x6E, 0x74, 0x69, 0x61, 0x6C, 0x5F, 0x34, 0x5F, 0x31, 0x2F,
  0x64, 0x65, 0x6E, 0x73, 0x65, 0x5F, 0x31, 0x33, 0x5F, 0x31, 0x2F, 0x52,
  0x65, 0x6C, 0x75, 0x3B, 0x73, 0x65, 0x71, 0x75, 0x65, 0x6E, 0x74, 0x69,
  0x61, 0x6C, 0x5F, 0x34, 0x5F, 0x31, 0x2F, 0x64, 0x65, 0x6E, 0x73, 0x65,
  0x5F, 0x31, 0x33, 0x5F, 0x31, 0x2F, 0x42, 0x69, 0x61, 0x73, 0x41, 0x64,
  0x64, 0x00, 0x00, 0x00, 0x02, 0x00, 0x00, 0x00, 0x01, 0x00, 0x00, 0x00,
  0x10, 0x00, 0x00, 0x00, 0xB2, 0xFD, 0xFF, 0xFF, 0x00, 0x00, 0x00, 0x01,
  0x14, 0x00, 0x00, 0x00, 0x1C, 0x00, 0x00, 0x00, 0x1C, 0x00, 0x00, 0x00,
  0x08, 0x00, 0x00, 0x00, 0x7C, 0x00, 0x00, 0x00, 0x02, 0x00, 0x00, 0x00,
  0xFF, 0xFF, 0xFF, 0xFF, 0x10, 0x00, 0x00, 0x00, 0x9C, 0xFD, 0xFF, 0xFF,
  0x61, 0x00, 0x00, 0x00, 0x73, 0x65, 0x71, 0x75, 0x65, 0x6E, 0x74, 0x69,
  0x61, 0x6C, 0x5F, 0x34, 0x5F, 0x31, 0x2F, 0x64, 0x65, 0x6E, 0x73, 0x65,
  0x5F, 0x31, 0x32, 0x5F, 0x31, 0x2F, 0x4D, 0x61, 0x74, 0x4D, 0x75, 0x6C,
  0x3B, 0x73, 0x65, 0x71, 0x75, 0x65, 0x6E, 0x74, 0x69, 0x61, 0x6C, 0x5F,
  0x34, 0x5F, 0x31, 0x2F, 0x64, 0x65, 0x6E, 0x73, 0x65, 0x5F, 0x31, 0x32,
  0x5F, 0x31, 0x2F, 0x52, 0x65, 0x6C, 0x75, 0x3B, 0x73, 0x65, 0x71, 0x75,
  0x65, 0x6E, 0x74, 0x69, 0x61, 0x6C, 0x5F, 0x34, 0x5F, 0x31, 0x2F, 0x64,
  0x65, 0x6E, 0x73, 0x65, 0x5F, 0x31, 0x32, 0x5F, 0x31, 0x2F, 0x42, 0x69,
  0x61, 0x73, 0x41, 0x64, 0x64, 0x00, 0x00, 0x00, 0x02, 0x00, 0x00, 0x00,
  0x01, 0x00, 0x00, 0x00, 0x10, 0x00, 0x00, 0x00, 0xA6, 0xFE, 0xFF, 0xFF,
  0x00, 0x00, 0x00, 0x01, 0x10, 0x00, 0x00, 0x00, 0x10, 0x00, 0x00, 0x00,
  0x07, 0x00, 0x00, 0x00, 0x30, 0x00, 0x00, 0x00, 0x2C, 0xFE, 0xFF, 0xFF,
  0x20, 0x00, 0x00, 0x00, 0x73, 0x65, 0x71, 0x75, 0x65, 0x6E, 0x74, 0x69,
  0x61, 0x6C, 0x5F, 0x34, 0x5F, 0x31, 0x2F, 0x64, 0x65, 0x6E, 0x73, 0x65,
  0x5F, 0x31, 0x32, 0x5F, 0x31, 0x2F, 0x4D, 0x61, 0x74, 0x4D, 0x75, 0x6C,
  0x00, 0x00, 0x00, 0x00, 0x02, 0x00, 0x00, 0x00, 0x10, 0x00, 0x00, 0x00,
  0x04, 0x00, 0x00, 0x00, 0xF6, 0xFE, 0xFF, 0xFF, 0x00, 0x00, 0x00, 0x01,
  0x10, 0x00, 0x00, 0x00, 0x10, 0x00, 0x00, 0x00, 0x06, 0x00, 0x00, 0x00,
  0x40, 0x00, 0x00, 0x00, 0x7C, 0xFE, 0xFF, 0xFF, 0x30, 0x00, 0x00, 0x00,
  0x73, 0x65, 0x71, 0x75, 0x65, 0x6E, 0x74, 0x69, 0x61, 0x6C, 0x5F, 0x34,
  0x5F, 0x31, 0x2F, 0x64, 0x65, 0x6E, 0x73, 0x65, 0x5F, 0x31, 0x32, 0x5F,
  0x31, 0x2F, 0x42, 0x69, 0x61, 0x73, 0x41, 0x64, 0x64, 0x2F, 0x52, 0x65,
  0x61, 0x64, 0x56, 0x61, 0x72, 0x69, 0x61, 0x62, 0x6C, 0x65, 0x4F, 0x70,
  0x00, 0x00, 0x00, 0x00, 0x01, 0x00, 0x00, 0x00, 0x10, 0x00, 0x00, 0x00,
  0x52, 0xFF, 0xFF, 0xFF, 0x00, 0x00, 0x00, 0x01, 0x10, 0x00, 0x00, 0x00,
  0x10, 0x00, 0x00, 0x00, 0x05, 0x00, 0x00, 0x00, 0x1C, 0x00, 0x00, 0x00,
  0xD8, 0xFE, 0xFF, 0xFF, 0x0F, 0x00, 0x00, 0x00, 0x61, 0x72, 0x69, 0x74,
  0x68, 0x2E, 0x63, 0x6F, 0x6E, 0x73, 0x74, 0x61, 0x6E, 0x74, 0x33, 0x00,
  0x01, 0x00, 0x00, 0x00, 0x10, 0x00, 0x00, 0x00, 0x8A, 0xFF, 0xFF, 0xFF,
  0x00, 0x00, 0x00, 0x01, 0x10, 0x00, 0x00, 0x00, 0x10, 0x00, 0x00, 0x00,
  0x04, 0x00, 0x00, 0x00, 0x1C, 0x00, 0x00, 0x00, 0x10, 0xFF, 0xFF, 0xFF,
  0x0F, 0x00, 0x00, 0x00, 0x61, 0x72, 0x69, 0x74, 0x68, 0x2E, 0x63, 0x6F,
  0x6E, 0x73, 0x74, 0x61, 0x6E, 0x74, 0x32, 0x00, 0x01, 0x00, 0x00, 0x00,
  0x04, 0x00, 0x00, 0x00, 0xC2, 0xFF, 0xFF, 0xFF, 0x00, 0x00, 0x00, 0x01,
  0x10, 0x00, 0x00, 0x00, 0x10, 0x00, 0x00, 0x00, 0x03, 0x00, 0x00, 0x00,
  0x1C, 0x00, 0x00, 0x00, 0x48, 0xFF, 0xFF, 0xFF, 0x0F, 0x00, 0x00, 0x00,
  0x61, 0x72, 0x69, 0x74, 0x68, 0x2E, 0x63, 0x6F, 0x6E, 0x73, 0x74, 0x61,
  0x6E, 0x74, 0x31, 0x00, 0x02, 0x00, 0x00, 0x00, 0x10, 0x00, 0x00, 0x00,
  0x10, 0x00, 0x00, 0x00, 0x00, 0x00, 0x16, 0x00, 0x18, 0x00, 0x14, 0x00,
  0x00, 0x00, 0x10, 0x00, 0x0C, 0x00, 0x08, 0x00, 0x00, 0x00, 0x00, 0x00,
  0x00, 0x00, 0x07, 0x00, 0x16, 0x00, 0x00, 0x00, 0x00, 0x00, 0x00, 0x01,
  0x10, 0x00, 0x00, 0x00, 0x10, 0x00, 0x00, 0x00, 0x02, 0x00, 0x00, 0x00,
  0x1C, 0x00, 0x00, 0x00, 0x9C, 0xFF, 0xFF, 0xFF, 0x0E, 0x00, 0x00, 0x00,
  0x61, 0x72, 0x69, 0x74, 0x68, 0x2E, 0x63, 0x6F, 0x6E, 0x73, 0x74, 0x61,
  0x6E, 0x74, 0x00, 0x00, 0x02, 0x00, 0x00, 0x00, 0x04, 0x00, 0x00, 0x00,
  0x10, 0x00, 0x00, 0x00, 0x00, 0x00, 0x16, 0x00, 0x1C, 0x00, 0x18, 0x00,
  0x00, 0x00, 0x14, 0x00, 0x10, 0x00, 0x0C, 0x00, 0x00, 0x00, 0x00, 0x00,
  0x08, 0x00, 0x07, 0x00, 0x16, 0x00, 0x00, 0x00, 0x00, 0x00, 0x00, 0x01,
  0x14, 0x00, 0x00, 0x00, 0x20, 0x00, 0x00, 0x00, 0x20, 0x00, 0x00, 0x00,
  0x01, 0x00, 0x00, 0x00, 0x40, 0x00, 0x00, 0x00, 0x02, 0x00, 0x00, 0x00,
  0xFF, 0xFF, 0xFF, 0xFF, 0x04, 0x00, 0x00, 0x00, 0x04, 0x00, 0x04, 0x00,
  0x04, 0x00, 0x00, 0x00, 0x21, 0x00, 0x00, 0x00, 0x73, 0x65, 0x72, 0x76,
  0x69, 0x6E, 0x67, 0x5F, 0x64, 0x65, 0x66, 0x61, 0x75, 0x6C, 0x74, 0x5F,
  0x6B, 0x65, 0x72, 0x61, 0x73, 0x5F, 0x74, 0x65, 0x6E, 0x73, 0x6F, 0x72,
  0x5F, 0x31, 0x36, 0x3A, 0x30, 0x00, 0x00, 0x00, 0x02, 0x00, 0x00, 0x00,
  0x01, 0x00, 0x00, 0x00, 0x04, 0x00, 0x00, 0x00, 0x02, 0x00, 0x00, 0x00,
  0x20, 0x00, 0x00, 0x00, 0x04, 0x00, 0x00, 0x00, 0xF4, 0xFF, 0xFF, 0xFF,
  0x19, 0x00, 0x00, 0x00, 0x00, 0x00, 0x00, 0x19, 0x0C, 0x00, 0x0C, 0x00,
  0x0B, 0x00, 0x00, 0x00, 0x00, 0x00, 0x04, 0x00, 0x0C, 0x00, 0x00, 0x00,
  0x09, 0x00, 0x00, 0x00, 0x00, 0x00, 0x00, 0x09,
};
const unsigned int modelo_vazao_tflite_len = 3800;
